e </w>
t h
s </w>
t </w>
d </w>
, </w>
n </w>
. </w>
r </w>
y </w>
o u
i n
a n
o </w>
th e</w>
e r
e r</w>
f </w>
l </w>
h a
e d</w>
an d</w>
e a
g </w>
e n
t o</w>
h i
o r
in g</w>
o f</w>
o n
I </w>
l l</w>
a r
a </w>
i n</w>
m </w>
e s
’ </w>
o w
o n</w>
h e</w>
th </w>
y ou
w i
t i
a t</w>
h </w>
m e</w>
e n</w>
e s</w>
l i
a s</w>
o r</w>
i s</w>
s t
v e</w>
; </w>
r o
e l
m a
i t</w>
r e
n o
th at</w>
k </w>
you </w>
r i
l e</w>
c e</w>
s t</w>
l y</w>
l d</w>
c h</w>
ow </w>
th e
l a
r a
hi s</w>
s e</w>
d i
er e</w>
s a
u r
no t</w>
s i
m y</w>
o o
b e
g h
wi th</w>
u t</w>
? </w>
h er</w>
- </w>
w as</w>
c o
f or</w>
u n
c a
b e</w>
e t</w>
t a
k e</w>
w h
“ </w>
n d</w>
e v
ha t</w>
” </w>
t t
th er</w>
! </w>
ou ld</w>
f a
e c
p </w>
gh t</w>
r ea
e e
f or
s h
ha ve</w>
th ou
s u
hi m</w>
t s</w>
a n</w>
a l
en t</w>
s p
th is</w>
ea r
on e</w>
t e</w>
A nd</w>
m i
l o
es s</w>
ha d</w>
s he</w>
d s</w>
w a
b ut</w>
s o
ti on</w>
a ll</w>
i r
i r</w>
s o</w>
w hi
c on
b y</w>
you r</w>
c h
T h
t y</w>
ar e</w>
m p
t er</w>
T he</w>
w or
t ed</w>
m o
ou r</w>
n ow</w>
g a
q u
— </w>
i d</w>
e ll</w>
l e
m u
r u
wi ll</w>
g e</w>
" </w>
O </w>
ea r</w>
d e</w>
s ha
m or
p o
S </w>
oo d</w>
_ </w>
s el
p a
u s</w>
ro m</w>
er s</w>
b le</w>
ma n</w>
d a
' </w>
r es
s e
m e
A </w>
v er
f rom</w>
ou t</w>
d e
ow n</w>
f i
e x
d o</w>
w </w>
l l
whi ch</w>
v i
in g
: </w>
b o
a c
p p
h o
f u
t o
es t</w>
n o</w>
w ould</w>
B ut</w>
g h</w>
sel f</w>
t ur
ev er</w>
c i
E </w>
thou </w>
W h
d o
p ro
E N
the y</w>
sa id</w>
w ere</w>
[ </w>
] </w>
ou s</w>
w hat</w>
i f</w>
th ing</w>
w e</w>
a l</w>
an y</w>
in e</w>
mor e</w>
l ea
th y</w>
E R
A N
en ce</w>
the m</w>
d y</w>
i s
p er
en t
c k</w>
p ar
a b
the ir</w>
li ke</w>
ou n
sha ll</w>
n e
g i
A R
ou </w>
k ing</w>
in d</w>
T o</w>
b l
d er</w>
r y</w>
th ere</w>
wh en</w>
s ed</w>
on s</w>
h ea
r an
co m
n a
H e</w>
I N
n i
r ou
wa y</w>
t er
g ood</w>
T hat</w>
the e</w>
g o
U S</w>
f f
ou r
a m</w>
d ed</w>
k s</w>
on g</w>
th an</w>
en d</w>
u p</w>
T </w>
for e</w>
co me</w>
an t</w>
u p
w ell</w>
l oo
a s
g u
be en</w>
h ear
W hat</w>
th en</w>
M r</w>
l or
so me</w>
m ent</w>
di d</w>
o ther</w>
k now</w>
s ur
W i
ha r
p la
m b
ver y</w>
D </w>
m en</w>
f e</w>
tt er</w>
u l
k ed</w>
p i
t u
d ing</w>
sh ould</w>
tt le</w>
d ea
E n
O N
wh o</w>
t ing</w>
an ce</w>
ing s</w>
y s</w>
el y</w>
m ar
s h</w>
Y ou</w>
s w
I t</w>
lo ve</w>
mu st</w>
t en
a ga
th in
g o</w>
o l
a d
t w
s ti
st a
ca n</w>
sa y</w>
ec t</w>
se e</w>
fu l</w>
n ess</w>
c ould</w>
e y
su ch</w>
mo st</w>
o p
c e
v es</w>
ti me</w>
d er
m on
ar d</w>
ma y</w>
O R
b u
t ru
o f
v er</w>
f e
h ere</w>
mu ch</w>
ev er
up on</w>
d es
s c
s on</w>
s ee
ma ke</w>
a f
el l
i l
c </w>
li ttle</w>
es e</w>
g ra
v ed</w>
F or</w>
I f</w>
n ever</w>
f ir
o se</w>
u se</w>
co mp
C a
d u
da y</w>
e y</w>
g rea
in to</w>
E x
to o</w>
p re
ab out</w>
s er
v ing</w>
A L
m ed</w>
o ld</w>
S T
g e
thin k</w>
c k
t e
st er</w>
b a
l u
qu i
m s</w>
O L
En ter</w>
i l</w>
M y</w>
l et</w>
ee p</w>
h ow</w>
s hi
S he</w>
lor d</w>
f ri
c y</w>
ea </w>
si r</w>
p res
Y </w>
o me</w>
n ing</w>
si on</w>
ti ons</w>
T H
L E
th ese</w>
r ed</w>
y et</w>
ma de</w>
be fore</w>
c u
ou nd</w>
o m</w>
p ri
j u
c hi
v en</w>
y ing</w>
tur e</w>
A s</w>
a pp
m an
C H
ER </w>
L a
t ra
_ Ex
b ro
h u
w o
aga in</w>
l es</w>
er e
I n</w>
m in
di s
m en
p s</w>
I O</w>
ha s</w>
d own</w>
grea t</w>
on ly</w>
li fe</w>
B e
h an
t ly</w>
c ha
ta ke</w>
sp ea
ear s</w>
M ar
l ess</w>
gi ve</w>
mi ght</w>
c an
h er
oo k</w>
p lea
sur e</w>
c oun
fa ther</w>
l ly</w>
r s</w>
r ow</w>
a way</w>
st r
T his</w>
N o</w>
c es</w>
ha th</w>
wh ere</w>
s in
re e</w>
l ed</w>
b i
n ed</w>
r e</w>
ow s</w>
H ow</w>
E S
d on</w>
i mp
s s</w>
s es</w>
h on
ri ed</w>
IN G
p e
h and</w>
E L
p e</w>
v a
l d
g er</w>
H a
er ed</w>
s ing</w>
k n
t ell</w>
s or
M a
hear t</w>
m es</w>
R O
be ing</w>
g ent
r in
o b
o th
ta in</w>
un t</w>
ni ght</w>
p ra
g ed</w>
ey es</w>
hi m
o ver</w>
w ha
c ar
m er
thou gh</w>
tw o</w>
w ar
Wh y</w>
hea d</w>
j o
so me
b </w>
e en</w>
W hi
him self</w>
ne w</w>
s en
h el
v o
S o</w>
o d</w>
f t</w>
e i
b rea
v en
thou ght</w>
a ge</w>
d ly</w>
l ong</w>
you n
I R
ca me</w>
a ble</w>
af ter</w>
r ing</w>
fir st</w>
l an
W e</w>
j ect</w>
R o
m ine</w>
K ING
ri ght</w>
loo k</w>
ha pp
b ea
Th ere</w>
t ri
h ou
b er
l s</w>
spea k</w>
t ch</w>
wor d</w>
t or
ou s
u gh
in s</w>
f l
Wh en</w>
d d
thou t</w>
ou gh</w>
f o
M rs</w>
y self</w>
F </w>
sh ed</w>
wor ld</w>
I US</w>
sti ll</w>
c en
c ed</w>
K ing</w>
i ll</w>
be g
P ro
ev en</w>
J o</w>
youn g</w>
m any</w>
p t</w>
d one</w>
t es</w>
no thing</w>
ever y</w>
KING </w>
Wi th</w>
par t</w>
c er
t on
k es</w>
i ts</w>
g re
ar t</w>
si de</w>
th ose</w>
whi le</w>
ca use</w>
in st</w>
of f</w>
wi thout</w>
c l
p u
ar y</w>
Th ey</w>
st ra
be tter</w>
O f</w>
b ac
is s</w>
t un
mo ther</w>
a te</w>
li ght</w>
dea th</w>
A M
N ow</w>
c our
d ear</w>
c or
wor k</w>
l and</w>
h ear</w>
h or
y thing</w>
L y
al ly</w>
m ea
T I
p ur
shi p</w>
m ind</w>
c ur
sp o
hou se</w>
L et</w>
t ch
la st</w>
G od</w>
in ed</w>
su b
fa ce</w>
can not</w>
Th en</w>
A n
w ard</w>
R I
f oo
S ir</w>
C ome</w>
li e
wa ys</w>
d ra
g et</w>
d ec
s et</w>
th ings</w>
rou gh</w>
a r</w>
I L
ga te</w>
s ou
Th ou</w>
k en</w>
sp i
po or</w>
ll ed</w>
l ing</w>
I s</w>
ow er</w>
an i
t r
a tion</w>
t en</w>
N o
e et</w>
fa ir</w>
re p
ti ll</w>
tru e</w>
in t</w>
i t
g en
( </w>
) </w>
B y</w>
i g
in ter
gu e</w>
bo th</w>
tur n</w>
st an
c lo
ex p
e unt</w>
an s</w>
pla ce</w>
m yself</w>
bro ther</w>
n e</w>
s si
p ut</w>
rou nd</w>
bac k</w>
Wi ll</w>
en ds</w>
c t</w>
de ed</w>
r en
wi th
Whi ch</w>
ch an
o c
I I</w>
tt ing</w>
b ra
c har
sa me</w>
a y</w>
i ce</w>
ere fore</w>
e l</w>
un der</w>
di st
aga inst</w>
na me</w>
l t</w>
on ce</w>
H is</w>
y e</w>
L i
L or
a tt
st and</w>
e g</w>
D or
b ur
n or</w>
_Ex eunt</w>
n er</w>
a t
h e
bo dy</w>
el t</w>
s l
b or
li ve</w>
ON </w>
EN </w>
f ind</w>
s ec
w al
I C
S C
Wh o</w>
L A
an sw
her self</w>
x </w>
mb er</w>
ra ther</w>
ro om</w>
ce i
Ly d
an other</w>
see med</w>
l ar
f ound</w>
gent le
Lyd gate</w>
o ff
do th</w>
th rough</w>
i d
la dy</w>
sa w</w>
or t</w>
op le</w>
b est</w>
t ry</w>
lea ve</w>
go t</w>
_Ex it</w>
wor ds</w>
M iss</w>
t ow
ho me</w>
L O
K </w>
ta l
on d</w>
L u
S T</w>
G u
W ell</w>
is h</w>
w s</w>
in d
hear d</w>
wo man</w>
men ts</w>
ho ld</w>
U C
I A</w>
com es</w>
d ge</w>
fo ll
AN </w>
Dor oth
ta ble</w>
Doroth ea</w>
g one</w>
ti mes</w>
our s</w>
t in
e f</w>
rea d</w>
H ere</w>
w ent</w>
Q u
A T
fri end</w>
p ea
g ri
ju st</w>
ti s</w>
fu ll</w>
pe ople</w>
c la
wha le</w>
AR D</w>
pa s
al ways</w>
ha l
ar ds</w>
A C
sw eet</w>
ca ll</w>
ea ch</w>
S E
ti es</w>
in i
gh ts</w>
b ed</w>
li z
ro o
s k
w ea
f ear</w>
n s</w>
s ea
bl ood</w>
ent ly</w>
ten ber
D u
f elt</w>
po se</w>
en ough</w>
st o
e mp
some thing</w>
k ind</w>
wh ose</w>
C A
D o</w>
a ff
ow ed</w>
ee l</w>
th ree</w>
com m
wi fe</w>
U R
r own</w>
k eep</w>
‘ </w>
c rea
th us</w>
d ar
en d
SC EN
g ir
SCEN E</w>
ti ve</w>
fa r</w>
w on
ugh ter</w>
u b
d ev
b la
s ea</w>
in t
ca l</w>
g ar
Wh ere</w>
li ty</w>
st ran
ho pe</w>
O r</w>
ec ted</w>
un der
b ear</w>
fe el
Y our</w>
han ds</w>
f ell
Lor d</w>
se en</w>
b and</w>
ow ing</w>
i m
g s</w>
d in
be th</w>
hu s
hal f</w>
so on</w>
ee p
st or
loo ked</w>
rea dy</w>
dea d</w>
p h
t or</w>
c ri
A G
go ing</w>
d en
Pro ject</w>
Gu tenber
c tion</w>
1 </w>
te mp
wh om</w>
de li
es s
No t</w>
P H
ur e</w>
ta l</w>
g es</w>
g la
J o
w r
d ou
th er
s la
el se</w>
k e
C E</w>
i se</w>
F IR
FIR ST</w>
s y</w>
hel p</w>
E D
res t</w>
hea ven</w>
fri ends</w>
hon our</w>
tur ned</w>
u ri
E liz
th an
M </w>
f ur
si l
sou l</w>
st ro
qui te</w>
ci ous</w>
A y</w>
for tun
E S</w>
d r
no ble</w>
wi sh</w>
ge ther</w>
hus band</w>
gen er
ha ll</w>
an ything</w>
bea u
st ru
b es
a u
to ld</w>
Eliz a
u r</w>
Eliza beth</w>
ec tion</w>
T is</w>
c le</w>
re me
fu lly</w>
ou ld
to gether</w>
E M
Q U
m ing</w>
tw een</w>
S t
al l
D U
i ous</w>
le ft</w>
g ing</w>
b ri
S cen
do es</w>
ey e</w>
Scen e</w>
i es</w>
in deed</w>
happ y</w>
a ir</w>
I n
En g
mea n</w>
i ght</w>
t ook</w>
w ri
b el
da m</w>
v an
AN T
a m
ar e
or e</w>
sel ves</w>
en ed</w>
er y</w>
i ty</w>
G ood</w>
w an
ti on
la w</w>
en e
s on
s mi
sin ce</w>
st ri
EL L
rea son</w>
M eg</w>
el d</w>
da ughter</w>
l en
d rea
ma ster</w>
ir e</w>
ga ve</w>
for th</w>
p rin
Du ke</w>
k new</w>
ES S</w>
ta in
di es</w>
U L
er ing</w>
U n
li sh</w>
with in</w>
ta tion</w>
Y es</w>
s ent</w>
re e
be tween</w>
A ll</w>
answ er</w>
h un
lie ve</w>
Ro sa
A r
AR </w>
P o
tt y</w>
si ster</w>
w ant</w>
O h</w>
pres ent</w>
com for
C ON
bo y</w>
tow ards</w>
mi s
A my</w>
me di
ex c
ha ving</w>
you r
sh ow</w>
ous ly</w>
cour se</w>
G o</w>
fell ow</w>
be cause</w>
S a
on i
Ca sa
Casa ub
y ed</w>
le y</w>
p ec
ma tter</w>
Casaub on</w>
qu a
b ar
fa mi
u sed</w>
loo king</w>
mon d</w>
e w</w>
C o
n ec
di e</w>
qu es
kn own</w>
l on
wh y</w>
0 </w>
pra y</w>
con si
m er</w>
la r</w>
c ul
mon ey</w>
le tter</w>
st u
re w</w>
da ys</w>
sor t</w>
ll s</w>
an g
O F</w>
ti c</w>
f f</w>
la y</w>
ex t</w>
A l
ran ce</w>
ne i
Y et</w>
mor ning</w>
n ear</w>
ear ly</w>
ca lled</w>
t ro
v ir
el s</w>
ha st</w>
na ture</w>
U T
str ess</w>
di sc
LE T</w>
p ower</w>
f la
La uri
Lauri e</w>
F red</w>
s ma
M i
s it</w>
re cei
E T</w>
ch ed</w>
ing ly</w>
th i
en ing</w>
sta y</w>
n one</w>
fir e</w>
pp ed</w>
of ten</w>
B e</w>
v ely</w>
h our</w>
rou ght</w>
al most</w>
V </w>
A t</w>
OR D</w>
t re
al one</w>
S u
dou b
c lu
P e
vo ice</w>
g g
c ried</w>
M AR
sin ess</w>
st e</w>
y ears</w>
wh o
T R
B ER
ro a
B ul
con f
t rea
F or
li es</w>
N ay</w>
do m</w>
ch e
b ring</w>
fa ll</w>
hi gh</w>
ff er
ou ght</w>
gh t
cer tain</w>
M o
l ou
l ear
Bul stro
S hall</w>
t ou
gi ven</w>
m ur
c ra
sp ir
st ed</w>
ha ps</w>
T a
K E</w>
Bulstro de</w>
sta te</w>
ear th</w>
T M</w>
e f
ll ing</w>
t ers</w>
g r
for m</w>
oun ds</w>
d en</w>
F F</w>
fa l
d ro
be lieve</w>
st e
Jo h
jo y</w>
p er</w>
fa i
ee ds</w>
AN D
o ver
TH </w>
th s</w>
th erefore</w>
who le</w>
har d</w>
Gutenber g
Gutenberg TM</w>
gentle man</w>
me ans</w>
com ing</w>
ri age</w>
st ar
B roo
st ea
bu siness</w>
oth ers</w>
c are</w>
r el
thou s
s ons</w>
Rosa mond</w>
sen se</w>
ll u
ma kes</w>
OR </w>
wi se</w>
EN T
f eel</w>
pla y</w>
la te</w>
ir s</w>
Ha ve</w>
N </w>
Joh n</w>
de f
ee ch</w>
ti s
h ur
der ed</w>
O n</w>
tru th</w>
plea se</w>
li ce</w>
G ar
fe w</w>
in f
s ci
RO M
ch o
v y</w>
en ti
v al
T ER</w>
RI CH
d es</w>
ssi ble</w>
mo ment</w>
per i
m p</w>
ton gue</w>
H er</w>
beg an</w>
ar m</w>
t ent</w>
T ha
co l
* </w>
i ma
your self</w>
v </w>
whi te</w>
su pp
vi ce</w>
m ou
feel ing</w>
ST A
chan ge</w>
F rom</w>
n ext</w>
di sp
c es
do or</w>
th ine</w>
RICH ARD</w>
g ni
v e
s s
P ar
SE CON
SECON D</w>
f fi
A ha
b r
me et</w>
lo st</w>
fi ed</w>
H AM
as ked</w>
P er
N or</w>
D o
ea t</w>
p tain</w>
su dd
st ood</w>
c ked</w>
mor row</w>
su n</w>
su p
re ma
di ffer
e d
z e</w>
in ted</w>
pea ce</w>
B E
IN E</w>
li ed</w>
spir it</w>
a bo
tal k</w>
Aha b</w>
ce p
G i
thous and</w>
ous in</w>
it self</w>
Broo ke</w>
vi l
b an
si ght</w>
sa ys</w>
li e</w>
t ears</w>
con tin
li a</w>
ou ra
5 </w>
E EN</w>
RO S
par ti
gent le</w>
A P
mar k</w>
am ong</w>
J u
sh o
R ome</w>
p on</w>
chi ld</w>
n et</w>
in ess</w>
w el
sma ll</w>
b rought</w>
s word</w>
sa tis
r en</w>
Lu cy</w>
di re
vir tu
gra ce</w>
QU EEN</w>
tt ed</w>
tch ed</w>
i </w>
fa v
ran t</w>
ow ever</w>
f in
di d
P E
Be th</w>
po int</w>
m bl
f ol
g th</w>
n u
Th y</w>
e ther</w>
thou ghts</w>
C on
fami ly</w>
c ing</w>
w in
st s</w>
of fi
D i
str ong</w>
sp ec
p or
wa ter</w>
I II</w>
pa ti
F AL
FAL STA
FALSTA FF</w>
D ar
en s</w>
tur es</w>
F are
c ir
en ded</w>
il s</w>
O ur</w>
so l
Ca es
coun try</w>
a ted</w>
ra ce</w>
foo l</w>
U N
un cle</w>
plea sure</w>
P R
M AN</w>
ta ken</w>
S o
c ks</w>
Caes ar</w>
DU KE</w>
a g
Tha n</w>
st er
d ri
Mar y</w>
wr ong</w>
stran ge</w>
t rou
c ousin</w>
see m</w>
ar ms</w>
la u
_ A
S E</w>
R e
I D
contin u
L UC
ch oo
as si
I S
or s</w>
ne ws</w>
c ti
re turn</w>
min u
st ers</w>
L on
W </w>
{ </w>
R Y</w>
} </w>
si c</w>
llu stra
b id</w>
pro mi
lea st</w>
b li
chi ld
vil la
R i
tt ers</w>
tu ra
ch ing</w>
sh ing</w>
fortun e</w>
t ness</w>
beau ty</w>
al so</w>
an e</w>
t on</w>
dra w
t est</w>
the m
a gre
spo ke</w>
f it</w>
cla i
ei ther</w>
I T
op en</w>
ch ur
hor se</w>
A re</w>
per haps</w>
ne ed</w>
st ing</w>
F rance</w>
ho l
ll ow</w>
vi si
res ol
gener al</w>
f ine</w>
R E
ANT ON
n or
tor s</w>
b ly</w>
w on</w>
la ce</w>
them selves</w>
as k</w>
ce pt</w>
p ed</w>
Dar cy</w>
s at</w>
e ty</w>
on es</w>
un to</w>
PR IN
g l
s ever
es ty</w>
v ol
ever ything</w>
p en
g n</w>
fa ul
hel d</w>
ear ing</w>
r ow
i dea
O ne</w>
ra c
d ness</w>
per f
s li
W ha
di sa
re qu
des er
wor ks</w>
c ro
wa r</w>
E ST
co ld</w>
ques tion</w>
I ST
ver ed</w>
t ran
ar i
gla d</w>
per son</w>
u su
Qu een</w>
ob ser
b oo
rea lly</w>
B O
t t</w>
gir l</w>
than k</w>
P a
su c
stor y</w>
g round</w>
J a
p rou
Mar ch</w>
I M
S ome</w>
ear ed</w>
na tura
sub ject</w>
sl eep</w>
l ine</w>
tt en</w>
W ho
c ess</w>
f er
han d
a tions</w>
kn ow
u ght</w>
mb </w>
d ers</w>
des ire</w>
ga r</w>
A n</w>
you th</w>
ow ers</w>
fai th</w>
I llustra
U pon</w>
sh es</w>
H ar
A lice</w>
un i
co p
bl u
sha me</w>
B ar
B en
ES S
b ir
c ru
Gi ve</w>
An ton
s k</w>
ch es</w>
ad mi
c re
pre tty</w>
LE S</w>
f an
wh ether</w>
il ed</w>
wor th</w>
go ds</w>
k i
B R
h ind</w>
AC T</w>
H EN
mar ried</w>
child ren</w>
ra y</w>
HEN RY</w>
comp any</w>
e e</w>
j ec
f ter</w>
in ten
eep ing</w>
La dy</w>
ca se</w>
w ind
e ce</w>
F a
P rin
do st</w>
Eng land</w>
foll ow</w>
sa ying</w>
bla ck</w>
fur ther</w>
ha m</w>
C LO
ca l
f ea
hi gh
po si
w ind</w>
ima g
d an
L ook</w>
h ence</w>
al ready</w>
man ner</w>
for d</w>
M u
S S
es sed</w>
b ook</w>
ma dam</w>
at ely</w>
fa st</w>
li ps</w>
so ci
s an
fi eld</w>
f ree</w>
ou t
op ini
mar riage</w>
oc ca
d eep</w>
e ff
reme mber</w>
l th</w>
ex pres
gir ls</w>
mar ry</w>
bo at</w>
ba d</w>
ee k</w>
t ely</w>
le dge</w>
con sci
bl oo
see ms</w>
g ro
f ell</w>
sh ort</w>
wel come</w>
IC K</w>
B A
d are</w>
mi ser
f our</w>
e w
spi ri
po ss
E ven</w>
wo men</w>
fal se</w>
lar ge</w>
m et</w>
el ess</w>
ke pt</w>
Th ough</w>
t own</w>
s y
w re
loo ks</w>
qu ar
C O
u m</w>
wor thy</w>
H en
b it</w>
h owever</w>
be hind</w>
pur pose</w>
comfor t</w>
ch ance</w>
la dies</w>
t es
tt er
st ance</w>
ma king</w>
HAM LET</w>
ad van
c ry</w>
me an
t le</w>
v ant</w>
tu de</w>
res p
k ill</w>
al ong</w>
fi ght</w>
ha ir</w>
lor ds</w>
W ould</w>
J UL
sor row</w>
sha r
hi ther</w>
sa ke</w>
li ving</w>
go ld</w>
sec re
en ty</w>
pla in</w>
ma d</w>
t wi
ta ge</w>
se l</w>
pa ir</w>
you rs</w>
E d
S H
Illustra tion</w>
ell ing</w>
bor n</w>
ru n</w>
L </w>
Th ese</w>
ci ty</w>
l in
abo ve</w>
o a
C h
si mp
s end</w>
stan ding</w>
pi ty</w>
m oun
e m</w>
en ly</w>
kn ows</w>
s ant</w>
U M
b al
C har
p es</w>
ac t</w>
con ver
mu sic</w>
hu m
mar ch</w>
ro y
ad ded</w>
st re
H er
en ts</w>
prou d</w>
s ound</w>
ac coun
el e
cer tain
st ant</w>
s ca
t us</w>
ould n</w>
some times</w>
mi stress</w>
b ound</w>
won der</w>
S h
sur pri
brea th</w>
k ind
ju sti
li ves</w>
ren ch</w>
O TH
e mb
c ea
h ours</w>
wor n</w>
vi ew</w>
r un
sol di
H i
hon est</w>
Be fore</w>
doub t</w>
go es</w>
z ed</w>
brea k</w>
D id</w>
B o
Ben net</w>
cir cu
f res
I V</w>
Ma ster</w>
e or
gentle men</w>
re co
po ssible</w>
ck ly</w>
n ers</w>
r on
be come</w>
ea th</w>
Th erefore</w>
sha lt</w>
comm on</w>
ri bu
Ma y</w>
g oo
sec ond</w>
pro vi
W as</w>
T ru
st one</w>
ROM E
H O
dis co
c rown</w>
str en
par don</w>
k in
ROME O</w>
pi c
af ter
ck et</w>
Y or
under stand</w>
lo se</w>
ea sy</w>
gri ef</w>
pa y</w>
dev il</w>
t one</w>
S ta
L e
Lon don</w>
in ing</w>
h ood</w>
ter ms</w>
da tion</w>
ca tion</w>
f ra
el ec
qu een</w>
n y</w>
a p
A D
EST ER</w>
comp ani
ab ly</w>
dra w</w>
or der</w>
gra ve</w>
V in
g ran
Hen ry</w>
c ut</w>
th ir
cour t</w>
pro ve</w>
m m
ri ch</w>
P O
ex a
BE TH</w>
pa ss</w>
de p
su it</w>
att en
char ge</w>
nei gh
_ To</w>
sc ar
th ers</w>
J ane</w>
PRIN CE</w>
opini on</w>
li ev
an ts</w>
wor se</w>
i al</w>
lon ger</w>
w ear</w>
pa st</w>
P i
ELL O</w>
pas sed</w>
r ying</w>
sa d</w>
chur ch</w>
A B
Prin ce</w>
sever al</w>
su ff
x i
sw ear</w>
D Y</w>
Yor k</w>
wi t</w>
B ing
sup pose</w>
see k</w>
H u
d on
id es</w>
oun ded</w>
l ow</w>
b en
har dly</w>
th or
T o
d ent</w>
g lor
ev ening</w>
clo se</w>
k iss</w>
char d</w>
Ha th</w>
comp le
k er</w>
lo ves</w>
ju d
hea vy</w>
W N</w>
wal k</w>
foo t</w>
tw enty</w>
en ter</w>
du ty</w>
know ledge</w>
gh ty</w>
Bing ley</w>
ta king</w>
s ing
d ow</w>
st le</w>
CLO WN</w>
for e
Ta ke</w>
thin ks</w>
T ro
CH AP
si ons</w>
r ess</w>
fi ve</w>
F i
ou l</w>
CHAP TER</w>
v es
f ly</w>
Eng lish</w>
j esty</w>
C e
me o</w>
2 </w>
in di
v el</w>
tr oni
b b</w>
L o
Ro meo</w>
Gar th</w>
A h</w>
wa tch</w>
rea t</w>
did n</w>
S ER
n ee
sa ge</w>
ser vice</w>
ge tting</w>
d rin
mou th</w>
ma id</w>
l li
e ment</w>
pp ing</w>
P ER
~ </w>
f y</w>
circu m
con cer
Ca ptain</w>
f un
Wha le</w>
G eor
L ORD</w>
e ts</w>
p ing</w>
hun d
li st
ti ful</w>
m es
dea l</w>
s wi
so m</w>
F ORD</w>
fe et</w>
ma tion</w>
is ed</w>
pu bli
im medi
po li
for ward</w>
ba ttle</w>
tur ning</w>
tor y</w>
fi sh</w>
v ers</w>
O B
plea sant</w>
di ed</w>
nei ther</w>
M AC
ri es</w>
res sed</w>
sp er
s un
O W
V AN
4 </w>
do ing</w>
natura l</w>
sp eech</w>
wi lt</w>
Ja mes</w>
di tion</w>
V OL
ac qua
Th e
war ds</w>
C or
i de</w>
see ing</w>
tu al</w>
in ce</w>
elec troni
dist ribu
la ugh
Ce lia</w>
lo ved</w>
t ried</w>
der ing</w>
si ve</w>
cha rac
usu al</w>
sa tion</w>
M on
dar k</w>
f ing
s _</w>
P ray</w>
IR </w>
UT US</w>
p lan
a go</w>
m mer</w>
BR UTUS</w>
3 </w>
M e
wa i
ha te</w>
oo m</w>
pro f
differ ent</w>
for ce</w>
S IR</w>
sp ect</w>
o pp
lo a
crea ture</w>
ge ment</w>
I AN</w>
H ea
de ter
e er</w>
Li ke</w>
S tu
re ven
C OR
pra cti
ea si
Th us</w>
po sed</w>
fa shi
p lu
exc ell
u </w>
f re
z z
D on</w>
hea ven
a ti
re turned</w>
st y</w>
G race</w>
E US</w>
D a
happ iness</w>
sc en
stren gth</w>
lau gh</w>
Ch ri
of t</w>
T ill</w>
La dis
si ty</w>
ig nor
ec tor</w>
sc or
M ore</w>
Anton y</w>
OTH ELLO</w>
ROS AL
so li
Su ch</w>
bo a
ob li
r or</w>
D e
f oul</w>
Who se</w>
Ladis law</w>
tru st</w>
y ear</w>
ir ed</w>
dr ess</w>
c ent</w>
rep lied</w>
reme mb
de m
ever y
S er
tun e</w>
AG O</w>
C I
I OL
thin king</w>
wri te</w>
recei ved</w>
tt ered</w>
Geor ge</w>
ces ter</w>
W ar
LA DY</w>
I AGO</w>
v al</w>
a mb
i us</w>
sor ry</w>
A fter</w>
comp li
spiri ts</w>
s m
stra ight</w>
pi ece</w>
la ck</w>
electroni c</w>
ere in</w>
ar ri
ei ght</w>
idea </w>
A ga
tou ch</w>
villa in</w>
P RO
p h</w>
D EM
hea ds</w>
en ga
certain ly</w>
es sion</w>
imp o
la b
pri de</w>
a w
ould st</w>
Mi dd
M IST
MIST R
MISTR ESS</w>
fa ct</w>
minu te</w>
y i
ten der</w>
k ne
Ri chard</w>
ro se</w>
F rench</w>
LE ON
dire c
ru p
ho t</w>
CA SS
pa le</w>
T ell</w>
li k
Gutenber g</w>
wi ck</w>
B EN
Midd le
ee ks</w>
an y
A CH
fa ir
sel y</w>
hear ts</w>
qui et</w>
din ner</w>
Vin cy</w>
G lou
hund red</w>
si ck</w>
virtu e</w>
S ee</w>
D I
faul t</w>
bo ys</w>
feel ings</w>
O n
b s</w>
d ful</w>
la id</w>
AN D</w>
G ENT
GENT LE
smi le</w>
trou ble</w>
t y
k ni
su e</w>
th yself</w>
oun dation</w>
o d
ul f</w>
ANTON Y</w>
o be
W ere</w>
mis sion</w>
k na
G LO
ee ps</w>
N E</w>
no te</w>
Stu bb</w>
GLO UC
GLOUC ESTER</w>
S i
sil ence</w>
bloo dy</w>
ar s</w>
roy al</w>
f ar
c oura
ca lly</w>
x ed</w>
con tent</w>
sudd enly</w>
re mo
lo t</w>
mi sta
sudd en</w>
me ant</w>
ci ent</w>
imp or
e qu
m el
ex cept</w>
mor tal</w>
re g
answ ered</w>
E PH
ea se</w>
qui ckly</w>
oo l</w>
j a
C ec
H o
di spo
pre par
le tters</w>
bro ke</w>
vi sit</w>
i ly</w>
Mo st</w>
Qu ee
Quee qu
Queequ eg</w>
Cec il</w>
Middle march</w>
ne y</w>
tch ing</w>
ell s</w>
pati ence</w>
A no
cu lar</w>
se qu
li ked</w>
G AR
P AT
nec ess
d est</w>
par ty</w>
har po
CA P
TI M
JUL I
JULI ET</w>
N or
ur ing</w>
sa ve</w>
wi ld</w>
con clu
S ince</w>
pra ise</w>
P AR
AG E</w>
con fi
justi ce</w>
spi te</w>
U CH
t ee
The ir</w>
sp e
wind ow</w>
Ano ther</w>
Ha d</w>
i ck</w>
ex peri
ho ly</w>
9 </w>
h o</w>
Be ow
th u
per cei
no ti
our ed</w>
in k</w>
ser ve</w>
bra ve</w>
prin ce</w>
Beow ulf</w>
un ti
b as
n al</w>
pa per</w>
ei gn</w>
fres h</w>
beg in</w>
li ar</w>
ra id</w>
wha les</w>
wan ted</w>
A TH
Fare brother</w>
GENTLE MAN</w>
AN IO</w>
app ear</w>
ar ti
af raid</w>
d ence</w>
t less</w>
be liev
stea d</w>
ene my</w>
F oundation</w>
S pea
Glou cester</w>
ea ble</w>
dec i
g row</w>
cl ear</w>
mi ghty</w>
C an</w>
L I
b ow</w>
gra cious</w>
H an
War wick</w>
ent ered</w>
spea king</w>
mer ry</w>
C assi
gi ves</w>
li f
ti tude</w>
c ely</w>
w oo
va li
fi g
i ally</w>
cl ou
p ul
con v
g y
dd le</w>
y right</w>
C LE
s qu
c ou
gu il
le an
P AGE</w>
ma te</w>
pa id</w>
b on
en ces</w>
app roa
AN TI
T y
promi se</w>
excell ent</w>
ob ject</w>
re ver
me mor
n ar
c ee
parti cular</w>
su a
u tion</w>
m on</w>
th in</w>
accoun t</w>
m ee
ser vant</w>
W AR
L E</w>
Ed ward</w>
C R
cu ri
in ts</w>
comm and</w>
car ry</w>
bro ken</w>
qui ck</w>
fu l
Al as</w>
w e
Y R
ta ins</w>
y ond</w>
chi ef</w>
ent er
hu man</w>
gh ted</w>
w ood</w>
lo ss</w>
F ri
M ER
be came</w>
for med</w>
re fu
publi c</w>
lear n</w>
in stru
lea d</w>
6 </w>
bl es</w>
B u
_A side</w>
R A</w>
dec k</w>
inter est</w>
k ness</w>
pres ence</w>
pa ge</w>
w eep</w>
ca st</w>
th ri
mer cy</w>
S ay</w>
aff ection</w>
c les</w>
wa ke</w>
TH E</w>
Fare well</w>
at ta
jec ts</w>
ha ste</w>
V i
1 8
E a
d ance</w>
bes eech</w>
H on
M EN
roa d</w>
wi shed</w>
pri va
eff ect</w>
wo e</w>
c king</w>
Spea k</w>
C al
h ell</w>
t a</w>
s in</w>
F RI
T ur
C ar
gre en</w>
I S</w>
de light</w>
la tion</w>
il ing</w>
resp ect</w>
do g</w>
a mi
Po or</w>
a unt</w>
off er</w>
B ee
di ffi
clai m</w>
d rew</w>
r ows</w>
foll owed</w>
_ S
bur y</w>
St ar
b ear
lo ving</w>
t le
mo tion</w>
A u
b right</w>
for get</w>
s worn</w>
ci vi
OR K</w>
tt e</w>
bu ck</w>
G R
M ESS
v ar
G re
drin k</w>
d le</w>
boo ks</w>
deter min
str on
ur se</w>
z </w>
stru ck</w>
P ri
OL I
es pec
j our
bi lity</w>
pa in</w>
li on</w>
in vi
VOL IO</w>
CLE O
ca ptain</w>
ea n</w>
D es
l ess
ta kes</w>
ev i
U SE</w>
IN D</w>
F F
c a</w>
min i
pres ently</w>
li ber
re d
m n</w>
satis fa
cha ir</w>
d ru
ac cu
bo ard</w>
sa fe</w>
ll en</w>
app eared</w>
c row
gh tly</w>
to p</w>
B ri
stan ds</w>
B ru
TIM ON</w>
exp ected</w>
co a
in no
gi ving</w>
p hi
occa sion</w>
al s</w>
oo th</w>
w ra
wi s
is on</w>
IN </w>
n eeds</w>
par a
easi ly</w>
sw ee
es ts</w>
conver sation</w>
B es
lear ned</w>
che er
un less</w>
H OR
l er</w>
val u
sil ent</w>
m it</w>
pas sion</w>
di v
en jo
gar den</w>
par ts</w>
MAC BETH</w>
H EL
c li
f ond</w>
grea ter</w>
lie f</w>
sh ment</w>
ran k</w>
immedi ately</w>
mon ster</w>
te ful</w>
war rant</w>
tr ying</w>
ni ce</w>
IN A</w>
Ma dam</w>
Y ORK</w>
Mar ry</w>
Bee be</w>
sto p</w>
d eep
ac tion</w>
con tra
in ning</w>
c ow
fl es
f are
Ma ke</w>
pa lace</w>
M er
CLEO PAT
CLEOPAT RA</w>
IN IUS</w>
m y
u mp
w in</w>
EN CE</w>
Lu ci
so ver
G ER</w>
Bru tus</w>
drea m</w>
vi ol
wa it</w>
N a
sp a
ra te</w>
ang ry</w>
Co ll
si de
MAR GAR
Bar tle
AN US</w>
diffi cul
bo ld</w>
ex i
beau tiful</w>
su gg
m ble</w>
T i
h y
Mi stress</w>
H el
VAN T</w>
Bartle tt</w>
S YR
SYR AC
SYRAC USE</w>
pro t
ous ness</w>
conf ess</w>
s man</w>
j ur
m ous</w>
AN A</w>
IL IA</w>
OL K</w>
BA ST
s choo
pa in
b b
man ners</w>
ar gu
tru ly</w>
pro b
re li
choo se</w>
B i
J O
A U
Wi ck
ROSAL IND</w>
aff ec
to morrow</w>
fare well</w>
offi ce</w>
A tt
MARGAR ET</w>
SER VANT</w>
EL IA</w>
d ang
er ous</w>
happ ened</w>
satis fied</w>
fan cy</w>
len gth</w>
continu ed</w>
stan ces</w>
con ten
lo ck</w>
l ying</w>
it or</w>
k no
C oun
A way</w>
Wick ham</w>
CAP U
CAPU LET</w>
CI TI
CITI Z
J A
es ti
re fl
charac ter</w>
th ed</w>
ca te</w>
ing ing</w>
g n
wal ked</w>
Par is</w>
mb er
lik ely</w>
S w
sta ff</w>
O G
draw ing</w>
se tt
con temp
reg ard</w>
bo som</w>
consci ence</w>
k et</w>
j ew
ba se</w>
Star buck</w>
sp ring</w>
ti red</w>
C ha
lo vely</w>
t ary</w>
po inted</w>
p al
fles h</w>
st ly</w>
com man
di a</w>
P ea
ton ight</w>
MESS EN
MESSEN GER</w>
K ATH
per sua
in ation</w>
secre t</w>
blu e</w>
es ta
unti l</w>
d st</w>
in stant</w>
c ted</w>
si ble</w>
in clu
posi tion</w>
rep ort</w>
P age</w>
W ARD</w>
R oom</w>
ell ed</w>
z ing</w>
kind ness</w>
ex ec
g ly</w>
de b
scen e</w>
v el
in stead</w>
ex tre
all owed</w>
ra ge</w>
as s</w>
hur t</w>
ea l
N UR
NUR SE</w>
OL </w>
b ani
necess ary</w>
app ro
con du
Whi le</w>
g li
pra y
Sh ould</w>
cl er
V IA</w>
va in</w>
ear n
as sa
sy mp
emp lo
sp ent</w>
ar ly</w>
tal king</w>
es ted</w>
be yond</w>
plea sed</w>
th ful</w>
on a
gla ss</w>
qu o
impor t
ten ed</w>
ac cor
impo ssible</w>
espec ially</w>
cha mber</w>
co t
go ver
N ever</w>
No thing</w>
cro ss</w>
cop yright</w>
i o</w>
LE AR</w>
for mer</w>
mo on</w>
gu es</w>
sla in</w>
W ICK</w>
IR D</w>
T ES</w>
ou ri
i ed</w>
re mar
pec u
pro per
c tor</w>
so le
neigh b
ac cep
tch es</w>
u ll</w>
agre ement</w>
Coll ins</w>
TH IRD</w>
con qu
oura ble</w>
a ma
hea lth</w>
ta le</w>
res pec
so ft</w>
ri ble</w>
par ted</w>
wha t
d ow
mean ing</w>
fl owers</w>
rea ding</w>
te en</w>
s sed</w>
r ely</w>
beg inning</w>
whi sp
ri se</w>
A S</w>
O ut</w>
S ha
differ ence</w>
bea t</w>
as sur
draw n</w>
So me
bu il
exp ec
m ere</w>
car ried</w>
pro per</w>
X </w>
WAR WICK</w>
th r
or tun
su mmer</w>
fav our</w>
than ks</w>
stre et</w>
I ta
ster n</w>
priva te</w>
ch ec
kn owing</w>
mur der</w>
s mo
E D</w>
U D
re l</w>
AL L</w>
AR D
app ar
n early</w>
th row</w>
ig n</w>
can st</w>
R ea
Char lo
Charlo tte</w>
n er
ta ste</w>
der i
ce ed</w>
ma tch</w>
mbl ing</w>
f ear
l er
de l</w>
heaven s</w>
k ing
bel ow</w>
H ER
so f
si tion</w>
on ed</w>
be hold</w>
op ened</w>
ear est</w>
g y</w>
en er
mi es</w>
B a
han g</w>
sen ger</w>
JO H
JOH N</w>
CITIZ EN</w>
dan ger</w>
fi f
er t</w>
fashi on</w>
sh ore</w>
s ent
th es</w>
p he
ld ly</w>
s wa
t _</w>
vali ant</w>
D ON</w>
ANTI PH
ANTIPH OL
ANTIPHOL US</w>
Y S
ow ly</w>
wi de</w>
tion al</w>
recei ve</w>
sh or
ea l</w>
du ced</w>
hi de</w>
d ry</w>
drea dful</w>
V AL
kna ve</w>
ev il</w>
g ged</w>
be ha
stri ke</w>
shar p</w>
G ent
c us</w>
ph y
sa il</w>
consi der
opp ortun
an ti
coun ten
for got</w>
wri tten</w>
m ely</w>
l un
an ger</w>
H or
AM </w>
se i
our selves</w>
g ers</w>
es ca
8 </w>
offi c
reven ge</w>
do l
bi g</w>
vi a</w>
Ly dia</w>
7 </w>
all ow</w>
li ved</w>
ra n</w>
clo ck</w>
att emp
sur es</w>
sou ls</w>
l est</w>
k ings</w>
soldi er</w>
go ld
F al
D ER
cen se</w>
gran d
l y
te ous</w>
si sters</w>
lan gu
dist ance</w>
si g
ta il</w>
sk y</w>
con sequ
sp ar
sha ke</w>
be gu
wa ll</w>
sh ou
ra h</w>
qu od</w>
e b</w>
EM ILIA</w>
rema in</w>
d el
en joy</w>
du e</w>
ef for
coun ter
nec k</w>
g est</w>
na tion</w>
be g</w>
perf ect</w>
mo ve</w>
vo i
ca p
oa th</w>
Cal eb</w>
TI T
glor y</w>
de g
yi eld</w>
b ul
la w
hol ding</w>
Be ing</w>
ga in</w>
ON A</w>
AR US</w>
ter nal</w>
mon ths</w>
stu dy</w>
fu ture</w>
B ea
enti rely</w>
re h
end ants</w>
dec ei
ir on</w>
d eeds</w>
sover eign</w>
Pe quod</w>
ANTON IO</w>
m as</w>
advan tage</w>
di gni
sha pe</w>
cha ri
foll owing</w>
simp le</w>
G ree
bo tt
wor e</w>
wh ere
im on</w>
ha bi
f lu
a live</w>
surpri se</w>
b oun
after wards</w>
p le</w>
Be cause</w>
t ar
si tting</w>
en ess</w>
M es
tru mp
ED WARD</w>
in cl
li ties</w>
hear ing</w>
in qu
con su
bl ed</w>
den y</w>
Sw eet</w>
an tu
ti us</w>
CH </w>
c s</w>
atten tion</w>
stran ger</w>
bra in</w>
wri ting</w>
lli am</w>
k is
le ts</w>
ther ine</w>
C LA
CLA UD
es ter
ch eeks</w>
fir m</w>
di ly</w>
imp er
pres en
foo lish</w>
boa ts</w>
Mu st</w>
EL </w>
no se</w>
F ea
A th
AR M
D ES
vo y
b ene
sla ve</w>
fortun es</w>
ght ful</w>
b row</w>
mee ting</w>
bi tter</w>
Pea ce</w>
j eal
side _</w>
k night</w>
Ju li
H ector</w>
DES DEM
DESDEM ONA</w>
f ro
c el
di ence</w>
pic ture</w>
car riage</w>
la ws</w>
ta tions</w>
p an
W a
har m</w>
sp ort</w>
le gs</w>
MEN EN
MENEN IUS</w>
ho pes</w>
wea k</w>
sc ri
wor st</w>
t ea
qui e
car e
w ear
did st</w>
ma st</w>
ti ous</w>
with al</w>
D ROM
DROM IO</w>
dd en</w>
won der
fig ure</w>
tri ump
spea ks</w>
tion ed</w>
parti cul
to day</w>
shi ps</w>
ac k</w>
fol k</w>
P AND
expres sion</w>
brea st</w>
af fa
cre d
nu mber</w>
m our
lea ves</w>
ti cal</w>
van ts</w>
su spi
th ro
mo ved</w>
w ed
b un
ti o</w>
R O</w>
CLAUD IO</w>
a d</w>
win ter</w>
bl ow</w>
rema ined</w>
counten ance</w>
gri ev
mbl ed</w>
gold en</w>
F ir
_A side_</w>
P OR
Lo ve</w>
Hon ey
E mer
fi xed</w>
on er</w>
exp ect</w>
b earing</w>
di sh</w>
c her</w>
ti ly</w>
mi ty</w>
rea sons</w>
f le
S IC
ID A</w>
BER OW
BEROW NE</w>
d ings</w>
mi tted</w>
war m</w>
g ment</w>
fi lled</w>
vi ous</w>
ta ined</w>
acqua int
a mu
ra in</w>
satisfa ction</w>
t each</w>
Har ry</w>
gu ard</w>
T it
ou se</w>
AN O</w>
PE TR
PETR UCH
PETRUCH IO</w>
re gar
mp le</w>
ra tion</w>
coura ge</w>
comp la
pre ci
g all
spo ken</w>
tur ns</w>
no on</w>
pati ent</w>
W or
comfor table</w>
E C
st ard</w>
L ow
com men
amb i
cha se</w>
des cri
bl ess</w>
obser ved</w>
vi c
miser able</w>
jour ney</w>
ab i
si x</w>
vi le</w>
bl ind</w>
si gn</w>
Fea ther
sea t</w>
or y</w>
s le
believ ed</w>
ex ci
des pair</w>
sett led</w>
temp er</w>
a side</w>
ir es</w>
clai med</w>
spe ed</w>
bla me</w>
minu tes</w>
min ds</w>
si gni
bu y</w>
hand some</w>
ma in</w>
y es</w>
Fir st</w>
g el
Honey church</w>
Low ick</w>
P ED
R u
k eeping</w>
stan tly</w>
des tro
ju dge</w>
miser y</w>
perf ec
memor y</w>
her o
for mation</w>
wa ters</w>
si gh
le men</w>
soldi ers</w>
ELL A</w>
R aff
Raff les</w>
CR ESS
CRESS IDA</w>
VAL ENT
VALENT INE</w>
c up
c rew</w>
s ses</w>
a ting</w>
un k</w>
s er</w>
an cient</w>
thir d</w>
equ al</w>
V ery</w>
ma jesty</w>
cop y</w>
EN T</w>
in a</w>
ha </w>
ca lls</w>
St and</w>
F la
Aga inst</w>
OB Y</w>
AB ELLA</w>
pla ced</w>
si on
dang erous</w>
wre tched</w>
dis gu
sing le</w>
att end</w>
an xi
al ter
pro of</w>
du ll</w>
l eep</w>
no ise</w>
T al
D ra
I Z
HAM </w>
T imon</w>
PAND ARUS</w>
T OBY</w>
b ree
ol ly</w>
determin ed</w>
mea sure</w>
an cho
per son
tur ed</w>
di vi
in es</w>
ch eek</w>
sha dow</w>
w ine</w>
f ru
pri son
c y
coun sel</w>
M ac
H a</w>
th ere
le g</w>
E ar
C AL
SH AL
disa p
d uring</w>
consi der</w>
wea lth</w>
W al
symp a
ea g
ag ree</w>
t ree</w>
b ones</w>
laugh ed</w>
jo in</w>
s na
exp en
ugh ters</w>
FRI AR</w>
COR IOL
CORIOL ANUS</w>
in crea
v ent</w>
resol ved</w>
d ship</w>
dev o
condu ct</w>
ancho ly</w>
ev id
w eek</w>
pro cee
rea son
sp end</w>
Th an
ac tly</w>
W el
dro p</w>
soci ety</w>
Chri sti
b ears</w>
N OR
co ll
oc ean</w>
sta irs</w>
M or
ter ary</w>
ri sing</w>
In deed</w>
reli gi
scor n</w>
EN A</w>
X X
da m
PRO T
PROT EUS</w>
re gu
sl owly</w>
ab s
or din
st rea
fa ces</w>
surpri sed</w>
pla in
sh u
wr on
ci al</w>
g rant</w>
co at</w>
tra itor</w>
fe tch</w>
er or</w>
CO UN
Ma jesty</w>
su ffi
ca pa
con sent</w>
opportun ity</w>
chan ged</w>
sh owed</w>
T w
v ani
sh ine</w>
fur ni
sh ut</w>
tal ked</w>
ru st</w>
sh ows</w>
Juli et</w>
Feather stone</w>
HEL ENA</w>
a ges</w>
bel o
lea ving</w>
f lo
pre cious</w>
mel ancholy</w>
wi shes</w>
co ff
ful ness</w>
al together</w>
Do th</w>
every body</w>
pri son</w>
b er</w>
U ni
C an
da ughters</w>
z en</w>
hon ourable</w>
mo ck</w>
C ol
ene mies</w>
lea n</w>
ti al</w>
f ears</w>
what ever</w>
vi sh</w>
S per
P hi
Y ea</w>
B EL
B UR
C ad
B UC
BUC KING
BUCKING HAM</w>
d ressed</w>
f led</w>
noti ce</w>
ca ught</w>
mer ely</w>
for ced</w>
w ei
tow ard</w>
run ning</w>
L ea
direc tly</w>
UR </w>
C all</w>
N e
K ate</w>
S U
sea s</w>
con cei
an x
promi sed</w>
crea tures</w>
bir th</w>
circum stances</w>
chi ef
ma l</w>
col our</w>
b re
ing ham</w>
lie ge</w>
CA ES
CAES AR</w>
PAR OL
PAROL LES</w>
LUC IUS</w>
ves sel</w>
ear er</w>
di ty</w>
percei ve</w>
dist in
or ig
p en</w>
hou se
bor ne</w>
bl essed</w>
s cious</w>
O r
I G
t ea</w>
P AL
LO W</w>
Cassi o</w>
tra v
visi ble</w>
cal m</w>
ca ted</w>
grea test</w>
dea v
app ear
mu l
ven ture</w>
rea l</w>
pa ins</w>
l st</w>
un g</w>
sho p</w>
lou d</w>
comp ar
w ound</w>
war s</w>
s ong</w>
U </w>
di sh
Wi thin</w>
la d</w>
fea st</w>
ll es</w>
x t</w>
EPH ES
EPHES US</w>
SHAL LOW</w>
SU FF
SUFF OLK</w>
re gi
imp ati
b ru
lin es</w>
di e
va st</w>
mb s</w>
ro ss</w>
suff er</w>
th rown</w>
con n
pecu liar</w>
acquaint ance</w>
f ood</w>
dar kness</w>
g rown</w>
fing er</w>
hor ses</w>
smi ling</w>
th rea
con scious</w>
P lea
pp er</w>
c ouldn</w>
shi re</w>
king dom</w>
di o</w>
Att endants</w>
PAL AM
PALAM ON</w>
pas sage</w>
d ying</w>
ra ble</w>
dou ble</w>
ch er
is sue</w>
m ly</w>
hum our</w>
Ro man</w>
tt ering</w>
f ts</w>
w ing</w>
P </w>
off ence</w>
quar rel</w>
C lau
CASS IUS</w>
suc cess</w>
voy age</w>
en deav
deg ree</w>
On ly</w>
di ous</w>
k in</w>
fell ows</w>
deli ver</w>
ad vi
po cket</w>
u sing</w>
sh e
sil ver</w>
trea sure</w>
c un
Pe ter</w>
Lor ds</w>
ge l</w>
enga ged</w>
faul ts</w>
ph ra
oth er
wea ther</w>
ing u
